#ifndef DISPLAY_H
#define DISPLAY_H


unsigned int display_len = 3172;
unsigned char display[] = {
 0x1c, 0x00, 0x00, 0x00, 0x54, 0x46, 0x4c, 0x33, 0x14, 0x00, 0x20, 0x00,
  0x1c, 0x00, 0x18, 0x00, 0x14, 0x00, 0x10, 0x00, 0x0c, 0x00, 0x00, 0x00,
  0x08, 0x00, 0x04, 0x00, 0x14, 0x00, 0x00, 0x00, 0x1c, 0x00, 0x00, 0x00,
  0x84, 0x00, 0x00, 0x00, 0xdc, 0x00, 0x00, 0x00, 0xcc, 0x05, 0x00, 0x00,
  0xdc, 0x05, 0x00, 0x00, 0x00, 0x0c, 0x00, 0x00, 0x03, 0x00, 0x00, 0x00,
  0x01, 0x00, 0x00, 0x00, 0x04, 0x00, 0x00, 0x00, 0x3e, 0xf9, 0xff, 0xff,
  0x0c, 0x00, 0x00, 0x00, 0x1c, 0x00, 0x00, 0x00, 0x38, 0x00, 0x00, 0x00,
  0x0f, 0x00, 0x00, 0x00, 0x73, 0x65, 0x72, 0x76, 0x69, 0x6e, 0x67, 0x5f,
  0x64, 0x65, 0x66, 0x61, 0x75, 0x6c, 0x74, 0x00, 0x01, 0x00, 0x00, 0x00,
  0x04, 0x00, 0x00, 0x00, 0x98, 0xff, 0xff, 0xff, 0x0c, 0x00, 0x00, 0x00,
  0x04, 0x00, 0x00, 0x00, 0x07, 0x00, 0x00, 0x00, 0x64, 0x65, 0x6e, 0x73,
  0x65, 0x5f, 0x32, 0x00, 0x01, 0x00, 0x00, 0x00, 0x04, 0x00, 0x00, 0x00,
  0xce, 0xfa, 0xff, 0xff, 0x04, 0x00, 0x00, 0x00, 0x0b, 0x00, 0x00, 0x00,
  0x64, 0x65, 0x6e, 0x73, 0x65, 0x5f, 0x69, 0x6e, 0x70, 0x75, 0x74, 0x00,
  0x02, 0x00, 0x00, 0x00, 0x34, 0x00, 0x00, 0x00, 0x04, 0x00, 0x00, 0x00,
  0xdc, 0xff, 0xff, 0xff, 0x0f, 0x00, 0x00, 0x00, 0x04, 0x00, 0x00, 0x00,
  0x13, 0x00, 0x00, 0x00, 0x43, 0x4f, 0x4e, 0x56, 0x45, 0x52, 0x53, 0x49,
  0x4f, 0x4e, 0x5f, 0x4d, 0x45, 0x54, 0x41, 0x44, 0x41, 0x54, 0x41, 0x00,
  0x08, 0x00, 0x0c, 0x00, 0x08, 0x00, 0x04, 0x00, 0x08, 0x00, 0x00, 0x00,
  0x0e, 0x00, 0x00, 0x00, 0x04, 0x00, 0x00, 0x00, 0x13, 0x00, 0x00, 0x00,
  0x6d, 0x69, 0x6e, 0x5f, 0x72, 0x75, 0x6e, 0x74, 0x69, 0x6d, 0x65, 0x5f,
  0x76, 0x65, 0x72, 0x73, 0x69, 0x6f, 0x6e, 0x00, 0x10, 0x00, 0x00, 0x00,
  0xec, 0x04, 0x00, 0x00, 0xe4, 0x04, 0x00, 0x00, 0xb8, 0x04, 0x00, 0x00,
  0x90, 0x04, 0x00, 0x00, 0x44, 0x04, 0x00, 0x00, 0x70, 0x03, 0x00, 0x00,
  0xbc, 0x01, 0x00, 0x00, 0xbc, 0x00, 0x00, 0x00, 0xb4, 0x00, 0x00, 0x00,
  0xac, 0x00, 0x00, 0x00, 0xa4, 0x00, 0x00, 0x00, 0x9c, 0x00, 0x00, 0x00,
  0x94, 0x00, 0x00, 0x00, 0x8c, 0x00, 0x00, 0x00, 0x6c, 0x00, 0x00, 0x00,
  0x04, 0x00, 0x00, 0x00, 0x86, 0xfb, 0xff, 0xff, 0x04, 0x00, 0x00, 0x00,
  0x58, 0x00, 0x00, 0x00, 0x0c, 0x00, 0x00, 0x00, 0x08, 0x00, 0x0e, 0x00,
  0x08, 0x00, 0x04, 0x00, 0x08, 0x00, 0x00, 0x00, 0x10, 0x00, 0x00, 0x00,
  0x28, 0x00, 0x00, 0x00, 0x00, 0x00, 0x06, 0x00, 0x08, 0x00, 0x04, 0x00,
  0x06, 0x00, 0x00, 0x00, 0x04, 0x00, 0x00, 0x00, 0x01, 0x00, 0x00, 0x00,
  0xea, 0x03, 0x00, 0x00, 0x00, 0x00, 0x0a, 0x00, 0x10, 0x00, 0x0c, 0x00,
  0x08, 0x00, 0x04, 0x00, 0x0a, 0x00, 0x00, 0x00, 0x02, 0x00, 0x00, 0x00,
  0x02, 0x00, 0x00, 0x00, 0x04, 0x00, 0x00, 0x00, 0x05, 0x00, 0x00, 0x00,
  0x32, 0x2e, 0x39, 0x2e, 0x32, 0x00, 0x00, 0x00, 0xea, 0xfb, 0xff, 0xff,
  0x04, 0x00, 0x00, 0x00, 0x10, 0x00, 0x00, 0x00, 0x31, 0x2e, 0x31, 0x34,
  0x2e, 0x30, 0x00, 0x00, 0x00, 0x00, 0x00, 0x00, 0x00, 0x00, 0x00, 0x00,
  0xcc, 0xf5, 0xff, 0xff, 0xd0, 0xf5, 0xff, 0xff, 0xd4, 0xf5, 0xff, 0xff,
  0xd8, 0xf5, 0xff, 0xff, 0xdc, 0xf5, 0xff, 0xff, 0xe0, 0xf5, 0xff, 0xff,
  0x1e, 0xfc, 0xff, 0xff, 0x04, 0x00, 0x00, 0x00, 0xf0, 0x00, 0x00, 0x00,
  0x70, 0x83, 0x20, 0x3f, 0xd2, 0xe7, 0x38, 0x3f, 0xf8, 0x15, 0x79, 0x3e,
  0x01, 0x7d, 0x83, 0xbf, 0x35, 0x3d, 0x2c, 0xbf, 0x9b, 0xd7, 0x0e, 0xc0,
  0x57, 0x8e, 0x13, 0xbf, 0x3a, 0xc0, 0x0e, 0x3f, 0xd7, 0x66, 0x8c, 0x3f,
  0xf4, 0x4b, 0x8d, 0x3e, 0x0a, 0x21, 0x34, 0xc0, 0x67, 0xd0, 0xe6, 0xbd,
  0xa9, 0xb7, 0x57, 0x3e, 0xe1, 0xd1, 0x16, 0xc0, 0x6d, 0x94, 0x89, 0xbe,
  0x05, 0x47, 0x79, 0x3f, 0x2a, 0xa4, 0x20, 0xbe, 0x22, 0xc8, 0x03, 0xc0,
  0x84, 0xea, 0x48, 0xbf, 0xb1, 0x64, 0xaa, 0xbf, 0xe5, 0x67, 0xa4, 0x3e,
  0x9c, 0x93, 0x8d, 0x3f, 0xcb, 0xbf, 0x16, 0xc0, 0xf4, 0x18, 0x81, 0xc0,
  0x60, 0x4e, 0xab, 0xbe, 0x0c, 0x72, 0x19, 0x40, 0x89, 0xee, 0x34, 0xc0,
  0x82, 0x02, 0x0d, 0x40, 0xff, 0x7f, 0x12, 0x40, 0x57, 0xc1, 0x54, 0x40,
  0xa3, 0x84, 0x13, 0xc0, 0x92, 0x41, 0x35, 0xbf, 0x2b, 0xe7, 0xbf, 0x3e,
  0x68, 0xce, 0x54, 0x3f, 0x6e, 0x60, 0xb3, 0x3e, 0xe1, 0xc4, 0x5f, 0x40,
  0x3b, 0xc7, 0xad, 0xbe, 0xfc, 0x98, 0x2a, 0x3f, 0x9e, 0x58, 0x9e, 0xbf,
  0x3b, 0xcd, 0x1c, 0xc0, 0x3e, 0x29, 0xe8, 0x3f, 0x75, 0x09, 0x8a, 0xbf,
  0x47, 0x98, 0x1f, 0xc0, 0x11, 0x89, 0x2e, 0xbf, 0xc5, 0xe2, 0x3f, 0x40,
  0x61, 0x5b, 0x2b, 0xc0, 0xd9, 0x72, 0xf5, 0x3f, 0x79, 0xc7, 0x8c, 0xc0,
  0xa0, 0xa8, 0xb7, 0xbf, 0x7d, 0x66, 0x6f, 0x40, 0x4e, 0xc1, 0x90, 0xc0,
  0x7d, 0x88, 0x19, 0x40, 0xd5, 0x8b, 0xc2, 0x3f, 0xc3, 0xdc, 0xcc, 0xbf,
  0x0a, 0x5c, 0xd4, 0x3f, 0xc7, 0x23, 0x00, 0xbe, 0xff, 0x55, 0x3a, 0xc0,
  0xd6, 0x58, 0x18, 0xc0, 0x88, 0xe3, 0x81, 0xbe, 0x94, 0x11, 0x7d, 0x3e,
  0x1a, 0xfd, 0xff, 0xff, 0x04, 0x00, 0x00, 0x00, 0xa4, 0x01, 0x00, 0x00,
  0xd2, 0xc8, 0x82, 0x3d, 0x1b, 0x57, 0xf5, 0xbf, 0xf1, 0x97, 0xaa, 0x3f,
  0xb2, 0xe9, 0x56, 0xc0, 0x60, 0x34, 0x38, 0x3f, 0xf8, 0xb6, 0xb7, 0x3f,
  0xe1, 0xa4, 0x5f, 0xbf, 0x6c, 0x91, 0xe1, 0xbf, 0xac, 0xe3, 0xd0, 0x3f,
  0xa5, 0x85, 0xde, 0x3f, 0x71, 0x2d, 0xb6, 0xbe, 0x41, 0x91, 0x9c, 0x3f,
  0x0c, 0xa8, 0xa1, 0x3e, 0x09, 0x72, 0x19, 0xc0, 0xaa, 0xea, 0x6e, 0xc0,
  0xa2, 0xf9, 0xe2, 0xbf, 0x4c, 0x97, 0x43, 0xbe, 0x68, 0x94, 0x80, 0xbf,
  0xdb, 0x16, 0xb8, 0x3f, 0x49, 0x18, 0x22, 0xbf, 0x76, 0x66, 0x15, 0x40,
  0xae, 0xee, 0xfa, 0x3d, 0x98, 0x62, 0x4f, 0xbf, 0xa0, 0x7e, 0x93, 0xbf,
  0xb5, 0x6f, 0x5c, 0x3f, 0xf6, 0x73, 0x3a, 0x3e, 0x8f, 0x08, 0x90, 0xbf,
  0x95, 0xe1, 0xae, 0x3f, 0x52, 0x34, 0x13, 0xbf, 0x55, 0x7b, 0x8b, 0x40,
  0xf5, 0x82, 0x24, 0xbe, 0x49, 0x54, 0xd4, 0x40, 0x3d, 0xfe, 0x8d, 0xbc,
  0x80, 0x40, 0xc5, 0xbf, 0xc0, 0x25, 0xc2, 0xbd, 0xe7, 0xc3, 0xcd, 0xbf,
  0x83, 0x89, 0xa6, 0xbf, 0x20, 0x73, 0x0f, 0xc0, 0xcc, 0xfc, 0x78, 0x3f,
  0x1c, 0x3f, 0x83, 0xbf, 0xea, 0xfb, 0x8e, 0xbf, 0x6c, 0xc6, 0x33, 0x40,
  0x32, 0x9d, 0x70, 0x40, 0x70, 0x52, 0xfd, 0x3f, 0xb1, 0xec, 0x07, 0x3e,
  0xd5, 0x0e, 0x3c, 0x40, 0xbb, 0x72, 0xde, 0xbe, 0x27, 0x48, 0x89, 0xbe,
  0xe2, 0xc4, 0xcb, 0xbf, 0xc3, 0x8a, 0x4f, 0xc0, 0x8b, 0x4f, 0x4a, 0xbf,
  0xb6, 0x3f, 0x41, 0x3f, 0xec, 0x32, 0x96, 0x40, 0xd2, 0xb4, 0xeb, 0x3f,
  0x1c, 0x11, 0x96, 0xbf, 0xb9, 0x37, 0x05, 0x40, 0x5e, 0xf9, 0x5a, 0xc0,
  0x1e, 0x85, 0x17, 0xc0, 0x5b, 0x08, 0xe4, 0x3f, 0xe4, 0xe2, 0x8c, 0x3f,
  0x5c, 0xbd, 0x1f, 0x40, 0xc4, 0x63, 0xc5, 0xbf, 0x10, 0x9c, 0x8c, 0xbf,
  0xeb, 0x0d, 0xec, 0x3e, 0x06, 0x34, 0x92, 0xbf, 0x2d, 0x53, 0xb2, 0x3f,
  0x59, 0xe3, 0xb8, 0xbf, 0x81, 0xc3, 0x46, 0x3e, 0xb8, 0xe8, 0x96, 0x3f,
  0xa6, 0x9c, 0x35, 0xc0, 0x4c, 0xd5, 0x4c, 0x40, 0x29, 0xab, 0xbf, 0x3c,
  0xfa, 0xc5, 0xdb, 0xbf, 0xa3, 0x2e, 0xe4, 0x3e, 0x18, 0x9b, 0xc2, 0xbf,
  0x22, 0xef, 0x7b, 0x3f, 0x7d, 0xec, 0x8d, 0x3f, 0x24, 0x5a, 0xa1, 0xbf,
  0x0f, 0x40, 0x64, 0xc0, 0xd2, 0x9a, 0x85, 0x3f, 0x25, 0xfc, 0x28, 0x3e,
  0x7f, 0xa3, 0x1c, 0x40, 0x56, 0xd0, 0x28, 0xbf, 0xb2, 0xef, 0x28, 0xbf,
  0x2f, 0x66, 0x45, 0xbf, 0x2c, 0x76, 0x9d, 0xbf, 0x67, 0xeb, 0xce, 0x3e,
  0x00, 0x78, 0x93, 0xc0, 0xb6, 0x29, 0x10, 0x3d, 0x22, 0xe0, 0x2a, 0x40,
  0x58, 0x8e, 0xc9, 0x3e, 0xb5, 0x0a, 0x89, 0x40, 0xbc, 0xb0, 0xa1, 0xbe,
  0x86, 0xa2, 0x6e, 0xbf, 0xc1, 0xee, 0x14, 0xbf, 0xf4, 0x71, 0xb8, 0xbf,
  0x77, 0x7f, 0x8b, 0x3f, 0x01, 0xfb, 0x8f, 0xbe, 0x37, 0x6c, 0x63, 0x3f,
  0x3d, 0x29, 0x0b, 0x40, 0x05, 0xed, 0xea, 0xbf, 0x2e, 0x35, 0xa3, 0x3f,
  0x06, 0x22, 0xdb, 0xbf, 0xd1, 0xe2, 0x4a, 0xbf, 0xff, 0x20, 0x24, 0x40,
  0xca, 0xfe, 0xff, 0xff, 0x04, 0x00, 0x00, 0x00, 0xc4, 0x00, 0x00, 0x00,
  0x46, 0x9c, 0x15, 0xbf, 0x27, 0x8e, 0x86, 0x3f, 0x86, 0x04, 0xf4, 0xbf,
  0xa9, 0xd2, 0xbf, 0xbf, 0x1b, 0x87, 0x16, 0x3e, 0x7f, 0x91, 0xc7, 0x3e,
  0x5a, 0xd0, 0x87, 0x3e, 0x87, 0x95, 0x00, 0x3e, 0x61, 0x98, 0x3b, 0xbf,
  0x4e, 0x3d, 0x36, 0xc0, 0xf7, 0xe4, 0xd2, 0x3e, 0x60, 0x0f, 0x2c, 0x3e,
  0xce, 0xc0, 0x2a, 0xbf, 0x3e, 0x28, 0xf6, 0x3f, 0x53, 0x82, 0x2d, 0xbe,
  0x82, 0x15, 0x09, 0x3f, 0x3b, 0xd6, 0x9c, 0xbf, 0x46, 0x14, 0xba, 0xbe,
  0x99, 0xb9, 0x0d, 0x3f, 0xec, 0xa7, 0x24, 0x40, 0xb5, 0x13, 0x40, 0xbe,
  0x29, 0x25, 0x2b, 0xbf, 0xc8, 0xa3, 0x55, 0xc0, 0xf2, 0xaa, 0x63, 0xbe,
  0x73, 0xdc, 0xb4, 0x3e, 0xa6, 0x4f, 0x85, 0x3e, 0x1f, 0x0c, 0x85, 0x3f,
  0xf5, 0xf7, 0xa4, 0x3e, 0xca, 0x38, 0xbc, 0xbe, 0x73, 0xaa, 0x3c, 0xbf,
  0x59, 0x4c, 0xe6, 0x3d, 0xac, 0x00, 0x3f, 0xbe, 0x9d, 0x47, 0x11, 0xbf,
  0x95, 0x2a, 0x63, 0x40, 0xb0, 0x69, 0x0e, 0x3f, 0x58, 0xd2, 0x40, 0xbf,
  0xe2, 0x43, 0x29, 0x40, 0x88, 0x66, 0xd0, 0x3e, 0xdf, 0xec, 0x65, 0xbf,
  0x36, 0x8a, 0x90, 0x3e, 0x32, 0x0f, 0xb4, 0xbe, 0x86, 0x00, 0xde, 0x3e,
  0x66, 0xab, 0x8a, 0xbf, 0xcd, 0x8a, 0x5e, 0xbe, 0xf7, 0x60, 0x3a, 0x40,
  0x24, 0xe0, 0x05, 0xbf, 0x5e, 0xeb, 0xd4, 0xbe, 0xb2, 0xfc, 0xb5, 0xbe,
  0xba, 0xeb, 0x87, 0x3f, 0x9a, 0xff, 0xff, 0xff, 0x04, 0x00, 0x00, 0x00,
  0x3c, 0x00, 0x00, 0x00, 0xff, 0x51, 0x38, 0xbd, 0x9e, 0x6b, 0xad, 0xbf,
  0xd9, 0xf8, 0x4e, 0x3f, 0x1f, 0xb1, 0x5c, 0x3d, 0x05, 0x75, 0xb9, 0xbe,
  0xe0, 0x1e, 0x9d, 0x3f, 0x0c, 0x01, 0x00, 0xbf, 0xf5, 0x40, 0x9a, 0xbd,
  0xe2, 0xdb, 0xb5, 0x3e, 0x73, 0x70, 0x41, 0xbe, 0x7c, 0xc2, 0x65, 0x3e,
  0xda, 0xb3, 0x30, 0xbb, 0xe2, 0x80, 0x84, 0x3f, 0x79, 0x8e, 0xc8, 0xbc,
  0x8c, 0x65, 0x6e, 0x3e, 0xe2, 0xff, 0xff, 0xff, 0x04, 0x00, 0x00, 0x00,
  0x10, 0x00, 0x00, 0x00, 0x0b, 0xbd, 0xec, 0xbd, 0x94, 0x75, 0x83, 0x3e,
  0xd7, 0x73, 0xbc, 0x3d, 0x2d, 0x04, 0x73, 0x3d, 0x00, 0x00, 0x06, 0x00,
  0x08, 0x00, 0x04, 0x00, 0x06, 0x00, 0x00, 0x00, 0x04, 0x00, 0x00, 0x00,
  0x1c, 0x00, 0x00, 0x00, 0xf0, 0x9e, 0xa6, 0x3f, 0xa1, 0x1b, 0x17, 0x3d,
  0xcd, 0x86, 0xdf, 0xbe, 0x9d, 0x7d, 0xa0, 0x3f, 0x00, 0xd8, 0x06, 0xbe,
  0x47, 0x14, 0x3b, 0x3f, 0x4f, 0x6c, 0x56, 0xbf, 0xf4, 0xf9, 0xff, 0xff,
  0xf8, 0xf9, 0xff, 0xff, 0x0f, 0x00, 0x00, 0x00, 0x4d, 0x4c, 0x49, 0x52,
  0x20, 0x43, 0x6f, 0x6e, 0x76, 0x65, 0x72, 0x74, 0x65, 0x64, 0x2e, 0x00,
  0x01, 0x00, 0x00, 0x00, 0x14, 0x00, 0x00, 0x00, 0x00, 0x00, 0x0e, 0x00,
  0x18, 0x00, 0x14, 0x00, 0x10, 0x00, 0x0c, 0x00, 0x08, 0x00, 0x04, 0x00,
  0x0e, 0x00, 0x00, 0x00, 0x14, 0x00, 0x00, 0x00, 0x1c, 0x00, 0x00, 0x00,
  0x40, 0x01, 0x00, 0x00, 0x44, 0x01, 0x00, 0x00, 0x48, 0x01, 0x00, 0x00,
  0x04, 0x00, 0x00, 0x00, 0x6d, 0x61, 0x69, 0x6e, 0x00, 0x00, 0x00, 0x00,
  0x06, 0x00, 0x00, 0x00, 0xf4, 0x00, 0x00, 0x00, 0xc0, 0x00, 0x00, 0x00,
  0x80, 0x00, 0x00, 0x00, 0x5c, 0x00, 0x00, 0x00, 0x28, 0x00, 0x00, 0x00,
  0x04, 0x00, 0x00, 0x00, 0x5e, 0xff, 0xff, 0xff, 0x0c, 0x00, 0x00, 0x00,
  0x10, 0x00, 0x00, 0x00, 0x01, 0x00, 0x00, 0x00, 0x01, 0x00, 0x00, 0x00,
  0x0c, 0x00, 0x00, 0x00, 0x01, 0x00, 0x00, 0x00, 0x0b, 0x00, 0x00, 0x00,
  0x52, 0xff, 0xff, 0xff, 0x10, 0x00, 0x00, 0x00, 0x00, 0x00, 0x00, 0x08,
  0x0c, 0x00, 0x00, 0x00, 0x10, 0x00, 0x00, 0x00, 0x9c, 0xfa, 0xff, 0xff,
  0x01, 0x00, 0x00, 0x00, 0x0b, 0x00, 0x00, 0x00, 0x03, 0x00, 0x00, 0x00,
  0x0a, 0x00, 0x00, 0x00, 0x06, 0x00, 0x00, 0x00, 0x02, 0x00, 0x00, 0x00,
  0xae, 0xff, 0xff, 0xff, 0x0c, 0x00, 0x00, 0x00, 0x10, 0x00, 0x00, 0x00,
  0x01, 0x00, 0x00, 0x00, 0x01, 0x00, 0x00, 0x00, 0x0a, 0x00, 0x00, 0x00,
  0x01, 0x00, 0x00, 0x00, 0x09, 0x00, 0x00, 0x00, 0xa2, 0xff, 0xff, 0xff,
  0x10, 0x00, 0x00, 0x00, 0x00, 0x00, 0x00, 0x08, 0x0c, 0x00, 0x00, 0x00,
  0x10, 0x00, 0x00, 0x00, 0xec, 0xfa, 0xff, 0xff, 0x01, 0x00, 0x00, 0x00,
  0x09, 0x00, 0x00, 0x00, 0x03, 0x00, 0x00, 0x00, 0x08, 0x00, 0x00, 0x00,
  0x05, 0x00, 0x00, 0x00, 0x03, 0x00, 0x00, 0x00, 0x00, 0x00, 0x0a, 0x00,
  0x10, 0x00, 0x0c, 0x00, 0x08, 0x00, 0x04, 0x00, 0x0a, 0x00, 0x00, 0x00,
  0x0c, 0x00, 0x00, 0x00, 0x10, 0x00, 0x00, 0x00, 0x01, 0x00, 0x00, 0x00,
  0x01, 0x00, 0x00, 0x00, 0x08, 0x00, 0x00, 0x00, 0x01, 0x00, 0x00, 0x00,
  0x07, 0x00, 0x00, 0x00, 0x00, 0x00, 0x0e, 0x00, 0x14, 0x00, 0x00, 0x00,
  0x10, 0x00, 0x0c, 0x00, 0x0b, 0x00, 0x04, 0x00, 0x0e, 0x00, 0x00, 0x00,
  0x10, 0x00, 0x00, 0x00, 0x00, 0x00, 0x00, 0x08, 0x0c, 0x00, 0x00, 0x00,
  0x10, 0x00, 0x00, 0x00, 0x58, 0xfb, 0xff, 0xff, 0x01, 0x00, 0x00, 0x00,
  0x07, 0x00, 0x00, 0x00, 0x03, 0x00, 0x00, 0x00, 0x00, 0x00, 0x00, 0x00,
  0x04, 0x00, 0x00, 0x00, 0x01, 0x00, 0x00, 0x00, 0x01, 0x00, 0x00, 0x00,
  0x0c, 0x00, 0x00, 0x00, 0x01, 0x00, 0x00, 0x00, 0x00, 0x00, 0x00, 0x00,
  0x0d, 0x00, 0x00, 0x00, 0x54, 0x04, 0x00, 0x00, 0xf0, 0x03, 0x00, 0x00,
  0x8c, 0x03, 0x00, 0x00, 0x38, 0x03, 0x00, 0x00, 0xf4, 0x02, 0x00, 0x00,
  0xac, 0x02, 0x00, 0x00, 0x64, 0x02, 0x00, 0x00, 0xf4, 0x01, 0x00, 0x00,
  0x9c, 0x01, 0x00, 0x00, 0x28, 0x01, 0x00, 0x00, 0xd0, 0x00, 0x00, 0x00,
  0x5c, 0x00, 0x00, 0x00, 0x04, 0x00, 0x00, 0x00, 0xf4, 0xfb, 0xff, 0xff,
  0x14, 0x00, 0x00, 0x00, 0x1c, 0x00, 0x00, 0x00, 0x1c, 0x00, 0x00, 0x00,
  0x0d, 0x00, 0x00, 0x00, 0x34, 0x00, 0x00, 0x00, 0x02, 0x00, 0x00, 0x00,
  0xff, 0xff, 0xff, 0xff, 0x04, 0x00, 0x00, 0x00, 0xe0, 0xfb, 0xff, 0xff,
  0x19, 0x00, 0x00, 0x00, 0x53, 0x74, 0x61, 0x74, 0x65, 0x66, 0x75, 0x6c,
  0x50, 0x61, 0x72, 0x74, 0x69, 0x74, 0x69, 0x6f, 0x6e, 0x65, 0x64, 0x43,
  0x61, 0x6c, 0x6c, 0x3a, 0x30, 0x00, 0x00, 0x00, 0x02, 0x00, 0x00, 0x00,
  0x01, 0x00, 0x00, 0x00, 0x04, 0x00, 0x00, 0x00, 0x48, 0xfc, 0xff, 0xff,
  0x14, 0x00, 0x00, 0x00, 0x1c, 0x00, 0x00, 0x00, 0x1c, 0x00, 0x00, 0x00,
  0x0c, 0x00, 0x00, 0x00, 0x50, 0x00, 0x00, 0x00, 0x02, 0x00, 0x00, 0x00,
  0xff, 0xff, 0xff, 0xff, 0x04, 0x00, 0x00, 0x00, 0x34, 0xfc, 0xff, 0xff,
  0x34, 0x00, 0x00, 0x00, 0x73, 0x65, 0x71, 0x75, 0x65, 0x6e, 0x74, 0x69,
  0x61, 0x6c, 0x2f, 0x64, 0x65, 0x6e, 0x73, 0x65, 0x5f, 0x32, 0x2f, 0x4d,
  0x61, 0x74, 0x4d, 0x75, 0x6c, 0x3b, 0x73, 0x65, 0x71, 0x75, 0x65, 0x6e,
  0x74, 0x69, 0x61, 0x6c, 0x2f, 0x64, 0x65, 0x6e, 0x73, 0x65, 0x5f, 0x32,
  0x2f, 0x42, 0x69, 0x61, 0x73, 0x41, 0x64, 0x64, 0x00, 0x00, 0x00, 0x00,
  0x02, 0x00, 0x00, 0x00, 0x01, 0x00, 0x00, 0x00, 0x04, 0x00, 0x00, 0x00,
  0xb8, 0xfc, 0xff, 0xff, 0x14, 0x00, 0x00, 0x00, 0x1c, 0x00, 0x00, 0x00,
  0x1c, 0x00, 0x00, 0x00, 0x0b, 0x00, 0x00, 0x00, 0x34, 0x00, 0x00, 0x00,
  0x02, 0x00, 0x00, 0x00, 0xff, 0xff, 0xff, 0xff, 0x0f, 0x00, 0x00, 0x00,
  0xa4, 0xfc, 0xff, 0xff, 0x1a, 0x00, 0x00, 0x00, 0x73, 0x65, 0x71, 0x75,
  0x65, 0x6e, 0x74, 0x69, 0x61, 0x6c, 0x2f, 0x64, 0x65, 0x6e, 0x73, 0x65,
  0x5f, 0x31, 0x2f, 0x53, 0x69, 0x67, 0x6d, 0x6f, 0x69, 0x64, 0x00, 0x00,
  0x02, 0x00, 0x00, 0x00, 0x01, 0x00, 0x00, 0x00, 0x0f, 0x00, 0x00, 0x00,
  0x0c, 0xfd, 0xff, 0xff, 0x14, 0x00, 0x00, 0x00, 0x1c, 0x00, 0x00, 0x00,
  0x1c, 0x00, 0x00, 0x00, 0x0a, 0x00, 0x00, 0x00, 0x50, 0x00, 0x00, 0x00,
  0x02, 0x00, 0x00, 0x00, 0xff, 0xff, 0xff, 0xff, 0x0f, 0x00, 0x00, 0x00,
  0xf8, 0xfc, 0xff, 0xff, 0x34, 0x00, 0x00, 0x00, 0x73, 0x65, 0x71, 0x75,
  0x65, 0x6e, 0x74, 0x69, 0x61, 0x6c, 0x2f, 0x64, 0x65, 0x6e, 0x73, 0x65,
  0x5f, 0x31, 0x2f, 0x4d, 0x61, 0x74, 0x4d, 0x75, 0x6c, 0x3b, 0x73, 0x65,
  0x71, 0x75, 0x65, 0x6e, 0x74, 0x69, 0x61, 0x6c, 0x2f, 0x64, 0x65, 0x6e,
  0x73, 0x65, 0x5f, 0x31, 0x2f, 0x42, 0x69, 0x61, 0x73, 0x41, 0x64, 0x64,
  0x00, 0x00, 0x00, 0x00, 0x02, 0x00, 0x00, 0x00, 0x01, 0x00, 0x00, 0x00,
  0x0f, 0x00, 0x00, 0x00, 0x7c, 0xfd, 0xff, 0xff, 0x14, 0x00, 0x00, 0x00,
  0x1c, 0x00, 0x00, 0x00, 0x1c, 0x00, 0x00, 0x00, 0x09, 0x00, 0x00, 0x00,
  0x34, 0x00, 0x00, 0x00, 0x02, 0x00, 0x00, 0x00, 0xff, 0xff, 0xff, 0xff,
  0x07, 0x00, 0x00, 0x00, 0x68, 0xfd, 0xff, 0xff, 0x18, 0x00, 0x00, 0x00,
  0x73, 0x65, 0x71, 0x75, 0x65, 0x6e, 0x74, 0x69, 0x61, 0x6c, 0x2f, 0x64,
  0x65, 0x6e, 0x73, 0x65, 0x2f, 0x53, 0x69, 0x67, 0x6d, 0x6f, 0x69, 0x64,
  0x00, 0x00, 0x00, 0x00, 0x02, 0x00, 0x00, 0x00, 0x01, 0x00, 0x00, 0x00,
  0x07, 0x00, 0x00, 0x00, 0xd0, 0xfd, 0xff, 0xff, 0x14, 0x00, 0x00, 0x00,
  0x1c, 0x00, 0x00, 0x00, 0x1c, 0x00, 0x00, 0x00, 0x08, 0x00, 0x00, 0x00,
  0x4c, 0x00, 0x00, 0x00, 0x02, 0x00, 0x00, 0x00, 0xff, 0xff, 0xff, 0xff,
  0x07, 0x00, 0x00, 0x00, 0xbc, 0xfd, 0xff, 0xff, 0x30, 0x00, 0x00, 0x00,
  0x73, 0x65, 0x71, 0x75, 0x65, 0x6e, 0x74, 0x69, 0x61, 0x6c, 0x2f, 0x64,
  0x65, 0x6e, 0x73, 0x65, 0x2f, 0x4d, 0x61, 0x74, 0x4d, 0x75, 0x6c, 0x3b,
  0x73, 0x65, 0x71, 0x75, 0x65, 0x6e, 0x74, 0x69, 0x61, 0x6c, 0x2f, 0x64,
  0x65, 0x6e, 0x73, 0x65, 0x2f, 0x42, 0x69, 0x61, 0x73, 0x41, 0x64, 0x64,
  0x00, 0x00, 0x00, 0x00, 0x02, 0x00, 0x00, 0x00, 0x01, 0x00, 0x00, 0x00,
  0x07, 0x00, 0x00, 0x00, 0x96, 0xfe, 0xff, 0xff, 0x10, 0x00, 0x00, 0x00,
  0x10, 0x00, 0x00, 0x00, 0x07, 0x00, 0x00, 0x00, 0x28, 0x00, 0x00, 0x00,
  0x18, 0xfe, 0xff, 0xff, 0x19, 0x00, 0x00, 0x00, 0x73, 0x65, 0x71, 0x75,
  0x65, 0x6e, 0x74, 0x69, 0x61, 0x6c, 0x2f, 0x64, 0x65, 0x6e, 0x73, 0x65,
  0x5f, 0x32, 0x2f, 0x4d, 0x61, 0x74, 0x4d, 0x75, 0x6c, 0x00, 0x00, 0x00,
  0x02, 0x00, 0x00, 0x00, 0x04, 0x00, 0x00, 0x00, 0x0f, 0x00, 0x00, 0x00,
  0xda, 0xfe, 0xff, 0xff, 0x10, 0x00, 0x00, 0x00, 0x10, 0x00, 0x00, 0x00,
  0x06, 0x00, 0x00, 0x00, 0x28, 0x00, 0x00, 0x00, 0x5c, 0xfe, 0xff, 0xff,
  0x19, 0x00, 0x00, 0x00, 0x73, 0x65, 0x71, 0x75, 0x65, 0x6e, 0x74, 0x69,
  0x61, 0x6c, 0x2f, 0x64, 0x65, 0x6e, 0x73, 0x65, 0x5f, 0x31, 0x2f, 0x4d,
  0x61, 0x74, 0x4d, 0x75, 0x6c, 0x00, 0x00, 0x00, 0x02, 0x00, 0x00, 0x00,
  0x0f, 0x00, 0x00, 0x00, 0x07, 0x00, 0x00, 0x00, 0x1e, 0xff, 0xff, 0xff,
  0x10, 0x00, 0x00, 0x00, 0x10, 0x00, 0x00, 0x00, 0x05, 0x00, 0x00, 0x00,
  0x24, 0x00, 0x00, 0x00, 0xa0, 0xfe, 0xff, 0xff, 0x17, 0x00, 0x00, 0x00,
  0x73, 0x65, 0x71, 0x75, 0x65, 0x6e, 0x74, 0x69, 0x61, 0x6c, 0x2f, 0x64,
  0x65, 0x6e, 0x73, 0x65, 0x2f, 0x4d, 0x61, 0x74, 0x4d, 0x75, 0x6c, 0x00,
  0x02, 0x00, 0x00, 0x00, 0x07, 0x00, 0x00, 0x00, 0x07, 0x00, 0x00, 0x00,
  0x5e, 0xff, 0xff, 0xff, 0x10, 0x00, 0x00, 0x00, 0x10, 0x00, 0x00, 0x00,
  0x04, 0x00, 0x00, 0x00, 0x38, 0x00, 0x00, 0x00, 0xe0, 0xfe, 0xff, 0xff,
  0x29, 0x00, 0x00, 0x00, 0x73, 0x65, 0x71, 0x75, 0x65, 0x6e, 0x74, 0x69,
  0x61, 0x6c, 0x2f, 0x64, 0x65, 0x6e, 0x73, 0x65, 0x5f, 0x31, 0x2f, 0x42,
  0x69, 0x61, 0x73, 0x41, 0x64, 0x64, 0x2f, 0x52, 0x65, 0x61, 0x64, 0x56,
  0x61, 0x72, 0x69, 0x61, 0x62, 0x6c, 0x65, 0x4f, 0x70, 0x00, 0x00, 0x00,
  0x01, 0x00, 0x00, 0x00, 0x0f, 0x00, 0x00, 0x00, 0xae, 0xff, 0xff, 0xff,
  0x10, 0x00, 0x00, 0x00, 0x10, 0x00, 0x00, 0x00, 0x03, 0x00, 0x00, 0x00,
  0x38, 0x00, 0x00, 0x00, 0x30, 0xff, 0xff, 0xff, 0x29, 0x00, 0x00, 0x00,
  0x73, 0x65, 0x71, 0x75, 0x65, 0x6e, 0x74, 0x69, 0x61, 0x6c, 0x2f, 0x64,
  0x65, 0x6e, 0x73, 0x65, 0x5f, 0x32, 0x2f, 0x42, 0x69, 0x61, 0x73, 0x41,
  0x64, 0x64, 0x2f, 0x52, 0x65, 0x61, 0x64, 0x56, 0x61, 0x72, 0x69, 0x61,
  0x62, 0x6c, 0x65, 0x4f, 0x70, 0x00, 0x00, 0x00, 0x01, 0x00, 0x00, 0x00,
  0x04, 0x00, 0x00, 0x00, 0x00, 0x00, 0x0e, 0x00, 0x14, 0x00, 0x10, 0x00,
  0x00, 0x00, 0x0c, 0x00, 0x08, 0x00, 0x04, 0x00, 0x0e, 0x00, 0x00, 0x00,
  0x10, 0x00, 0x00, 0x00, 0x10, 0x00, 0x00, 0x00, 0x02, 0x00, 0x00, 0x00,
  0x34, 0x00, 0x00, 0x00, 0x90, 0xff, 0xff, 0xff, 0x27, 0x00, 0x00, 0x00,
  0x73, 0x65, 0x71, 0x75, 0x65, 0x6e, 0x74, 0x69, 0x61, 0x6c, 0x2f, 0x64,
  0x65, 0x6e, 0x73, 0x65, 0x2f, 0x42, 0x69, 0x61, 0x73, 0x41, 0x64, 0x64,
  0x2f, 0x52, 0x65, 0x61, 0x64, 0x56, 0x61, 0x72, 0x69, 0x61, 0x62, 0x6c,
  0x65, 0x4f, 0x70, 0x00, 0x01, 0x00, 0x00, 0x00, 0x07, 0x00, 0x00, 0x00,
  0x14, 0x00, 0x18, 0x00, 0x14, 0x00, 0x00, 0x00, 0x10, 0x00, 0x0c, 0x00,
  0x08, 0x00, 0x00, 0x00, 0x00, 0x00, 0x04, 0x00, 0x14, 0x00, 0x00, 0x00,
  0x14, 0x00, 0x00, 0x00, 0x20, 0x00, 0x00, 0x00, 0x20, 0x00, 0x00, 0x00,
  0x01, 0x00, 0x00, 0x00, 0x3c, 0x00, 0x00, 0x00, 0x02, 0x00, 0x00, 0x00,
  0xff, 0xff, 0xff, 0xff, 0x07, 0x00, 0x00, 0x00, 0x04, 0x00, 0x04, 0x00,
  0x04, 0x00, 0x00, 0x00, 0x1d, 0x00, 0x00, 0x00, 0x73, 0x65, 0x72, 0x76,
  0x69, 0x6e, 0x67, 0x5f, 0x64, 0x65, 0x66, 0x61, 0x75, 0x6c, 0x74, 0x5f,
  0x64, 0x65, 0x6e, 0x73, 0x65, 0x5f, 0x69, 0x6e, 0x70, 0x75, 0x74, 0x3a,
  0x30, 0x00, 0x00, 0x00, 0x02, 0x00, 0x00, 0x00, 0x01, 0x00, 0x00, 0x00,
  0x07, 0x00, 0x00, 0x00, 0x02, 0x00, 0x00, 0x00, 0x20, 0x00, 0x00, 0x00,
  0x04, 0x00, 0x00, 0x00, 0xf4, 0xff, 0xff, 0xff, 0x0e, 0x00, 0x00, 0x00,
  0x00, 0x00, 0x00, 0x0e, 0x0c, 0x00, 0x0c, 0x00, 0x0b, 0x00, 0x00, 0x00,
  0x00, 0x00, 0x04, 0x00, 0x0c, 0x00, 0x00, 0x00, 0x09, 0x00, 0x00, 0x00,
  0x00, 0x00, 0x00, 0x09
};

#endif //DISPLAY_H